be063cc1
3dec14a9
3d814ff5
3d5ece2c
3d0f48e4
be117361
bdfdab24
be0d247e
3ccc270c
3ddd86fd
be01a386
bdc82258
3c823aec
bdf95339
3cc4fd0c
bcefdf68
be08bfdb
3c92114b
be118c9d
3db97f8b
be11bf2d
3e12596c
be0cc65e
3d124d54
bd9e12b3
be07ac35
3d2e8df3
3df9671a
3dcd14f3
bd358bc2
3e147875
bd3364aa
bd65c428
be164564
3c7c5cc1
bcc9db17
bdcd7ec0
be02f42a
3cc55b9b
bbc48cc5
3d574178
3ca1ac64
bd914126
bde69373
bd95f566
3dcf6969
3b0bd930
3d22096e
bdaaedfa
bdd7ed62
3d0705b1
bcb8e09c
3dbef63f
3dcbcfe9
bd3ee452
3d527bbc
3e079fbd
3d3ebf24
bdc1611f
3da7c353
3dc67904
3e06aaa8
3c9be1b1
3d26227e
bdc9b1a4
bd5181a6
be0b85d0
3d589d6c
bd75cd3f
3e26f701
bd1ef848
3d2a1fee
bd4039d5
3da17cec
3d48493f
3e01966a
bccbd053
3d976419
3d0a686b
3de30bf8
bccd02e4
3d717fab
3e169b63
3e145f1f
bbc3f52b
3e037a0b
3d56d85e
bd0799d3
3e097b68
3e0e7aef
3d4cd568
3db279ae
3e010892
3e10fa0b
bd1f10d0
bd74d6a2
3e095061
3ddb1536
3d548253
3dc68f4d
3e01b044
3df116e1
3d5209ab
3ca6ac73
bd908521
3e205aec
3dec44e5
3d0f189e
3e0c5f87
be155d35
3df75195
bb13c282
bc0655cf
3dc63dbe
3db300b8
bbc4a6f6
3dbb04e2
bda5a498
bd89009a
3cba0ef7
3dc0221c
bd8e29e0
be0c49b1
be1012e2
3d1b36da
bdb15ac0
bdbad64e
bd3103ea
3d685190
3dd7c8fd
3ce9568e
bd200518
3ce7c36b
3d81e197
3d0861cf
bdf56d2f
bd812eba
bdbfff52
3d998b7a
3db868ea
3e099993
bde18f87
bdeeaa56
bd300ce5
bdbc1f33
3e16e5ca
3dccf4bc
3b68db70
3d00f968
3e236698
bdf4497b
bd5de918
bc47f041
bdc0765b
3d17d299
bdc977be
3cf1e856
be14021b
bd7425a1
3b83f7cf
bdcce8c4
bc5199c0
bd62b7ea
bdf571dc
3e12fc78
bd5e451b
3d367f53
bd46ea75
3dc584e6
bc73909a
3c9b1498
3e1698d1
3dcb5d68
bcc8daaa
bd5ce8da
3ccfe58b
bdf8c1b8
3d90bde4
3d74e68f
bd56e607
3e1219ca
3de868c8
bb228a9a
be0bda1b
bda4ec0c
3d9807bd
bdd623d0
bd819cd3
3e2dd166
be081d06
bcd05a80
bdd1bfa5
3cde0bf2
bb81b42f
3db51449
3e0a2d4c
bd80707e
3db32e13
bc35a329
3de24561
3d506a8c
3cd0fe97
bdcc8c17
3e291560
bdf4b1a6
3ccd62c0
bc495794
be0d68f9
3d080d75
3e0552df
3dfc96f0
be151e03
3c7b98c4
be031b8e
3dc4379e
3c549996
3dd02a25
bdba1491
3e1aa7fa
be1a26ef
3e1222af
3decd8af
be0ad828
bd83fa40
be29c62e
bcfa2755
bc9f77e8
3c611132
bdc1e1c5
3d98bdd4
bde7117d
3d3c4054
be031682
3d6f5df6
3d66c72f
3dbfb66b
3e23e2cd
bce78d3e
bb28b826
3d2d7c31
bcfb1d48
3ddbb396
3dd5c6b7
bdb02bf5
be0989fe
bdbb894f
3e141e41
be0fa9c2
bcf38211
3cafbc88
3e1488d2
bc4d698a
3d8dfbb6
bd9a90fe
be03e01c
3d814ff1
3d977563
3de5d62f
bcde45ab
3d4f16c9
3dfc009a
3dc24aca
be11bd86
3e04c496
3df65320
3bede28a
bb5fc322
3e1d2bd8
be0641a6
bcffab63
bdd2bbe2
3dad3969
bd8fa0f2
3e08ec4e
3dc5de9b
be05dcfd
be21a740
bdb3ffb6
3dedb489
bca1e104
bd9decb9
3e1749d0
3cd7046e
bd8424bd
bdc8061a
3c90bfe8
bda2c684
bdea7ed8
be04fc59
3e16fa17
3cea9b23
be130759
3dd56c40
3d953504
3cee56b8
3da6d3a5
bbe53117
bb769f80
3d25cfbe
3d48f462
3e14cb59
bd83bdb1
be0917b4
bdb4cd38
3c43e6c1
3d48b445
bdd7558f
be26ce59
bdd4f49e
3db9a13f
bdaf61e6
be0c9cdf
3d91cd18
be1659ca
bd66ebe3
be1d20f3
bddad58e
be13eff4
3d845974
bd5a4db7
bcecce10
bdcb6695
3e1c161c
be01db20
3dcdccdb
bd64932a
3d49116c
bdc934ca
bd9205e7
bd362ec8
be222d8a
3e0e1d45
3b6454b2
3d88ef82
bdb1d470
3ae1f935
bda92a57
3d6a0079
3db1e138
bdb05458
bdd7ed9d
3de64407
bdd4fccd
bd41e636
3e1c5ed1
bd037267
be0a4c59
be1b0aa6
3d8a7319
bd72894d
be1b853a
bdcb917e
be07d746
bdb33b1d
bd9be483
3b97a647
be070589
3e1098ed
3d83e8dd
be1280ed
bd2c5a56
bc875ced
bddbeefe
3e1b2f06
bdf57373
be1c0131
3dd5f1f8
bd92f651
3cc8a7b3
3dd0e7a8
3de7ccc8
bde009f6
bc654a16
3d2d5e02
3daa45c9
be1eb0f9
3cb4c1b3
3dc32bed
bd9c885f
3ca3b6bf
bd7850e4
be0db69e
bdb5c940
3dcc51c2
be3e4585
3e14b741
be1c8b32
3d9efb87
3de070f5
3b8e950e
bd2f8fcb
3d11598a
3d99414f
3be4ba1c
3bd17a2e
3c7515b9
3e11f04d
3d862b99
3cf698bb
bd655e2f
bd5ee5b6
bd0eed82
3d523e55
bcd1811a
3d14220b
bcc941cd
3da0b087
3e0499c9
bd94d4bf
bdc2bfbb
bd132764
bc161678
3cc60e57
be0ab9ea
bbbf0473
3e2cae0b
bdcbe8e1
bcc0a682
3caffc40
be11be7a
bd80c302
bdfd25f5
be02ac29
3d1c6c8a
3d41a176
bd8956eb
bdfdd2e3
3e037aec
bda4b9c9
3d6cd825
3d2bf9d4
be213be3
3e1eff48
3dbfea84
3dcf797f
be0df13b
bdfba96c
3e260e72
3e1d4ed8
be11a622
bd8c660c
bd8d9776
3d8b40ca
bdc20b65
bdfea2f8
3d6fe240
3d146564
3ca91253
bd8da26c
bdb79733
3dc87243
3cbc228e
3cdd2315
3e022264
3dc188c1
bd90f47a
ba9e5289
3e0b9fc1
3c10e672
bdb2d509
3d2b727f
3db1d107
bc2f08f3
3ca0e716
3e1129ed
3d4c263c
3db8966c
3b62329d
3c3879ce
3d0f300e
3dfbcacc
be0aa358
3df375e1
be189fab
be0c8c02
bde416b9
bd93eae7
bdf92137
bdc59b00
3deeaff8
be012c1f
3d3b4b88
bdf282dd
3df20fcd
be112e33
3d7c7885
3ddb5a1a
3cde2eb0
bb23481b
3d6a7df2
3c3781ff
3dc09580
3dd35130
3db57e23
bd23c85a
3d5708e1
3bcf449d
bda4540e
bde9868c
3ddf50d5
bad5fe2c
3dad3d46
3e168d34
3d9b884e
bdd4360e
bda6547f
be0d05d7
3d09fdeb
be1db0fa
bdcb7c28
bd91a0a7
3da7b3b8
