00111011011000111001011111110010
10111001000100101111111111000000
00111011001101111101010010100111
10111001100010011000100111011110
00111011100001101100100101001011
00111011100010010010010100110010
00111011100101100000110011100111
00111011101001010101011110001101
10111001110111011110110111001001
00111011100110000011000100111000
00111001011111101110000100110011
10111010100001111011000000101001
00111011100100100001111000110100
00111001000011011000111001110100
00111011100100100111110111111110
10111010101000000000111100010110
00111011101000110000100011110010
10111010001010111100110000111001
00111011011111100110111111001001
10111001101001001100101111101011
10111010000100110110000101000111
10111010011000111000110110100100
10111010011001010111100001110110
00111011100011110110100101101011
00111011100100110011011010111010
00111011100110111111100101100011
00111011100100010101101000000110
10111010001010010110011111101111
00111011010111011001100100001111
10111000111110110101110001110110
10111010010110010100001000101101
00111011101000101100011111111011
