00111110100100111010101101111111
10111110011001000110011001010001
00111110000101101000101010100110
10111110010001010001110000010101
00111110000010011000010101001100
10111110100001000111000011101110
00111110100100011011110110101110
10111110000011110100001110011101
00111110100111001100111010000101
10111110100100110110000110110000
10111101101110110010010011011010
10111110101000101110010000010010
10111110000000110011110011101101
10111110100100110000101001001011
10111110001110101100110110110100
10111110100101010101011000011100
10111110101101101010001101010110
10111110100110111001011000001100
00111101101100010110011111110010
10111110100100111100101001010101
10111101100010011010010000001101
00111110001111111110011111011111
00111100110101101001000001111111
00111110001110000010000111011000
00111101100010011010101010001001
10111101111011111000010001101100
10111110110111110001001101111010
00111110100111001100100010101000
00111110001011101101110100101001
10111110011100101101110100000100
10111110011110010001010100100111
00111100101111010011010100110110
00111110001000111011110011000101
00111101101101001011111101000101
10111110110010001100111001001010
00111100000010011111000010111000
00111110010100111111100100010011
10111110101011001110000111011010
10111110100011010000001110011010
00111110011100100111011000000111
10111110011110010010101000001111
00111110010000100100001011101100
10111110000110000100000010010011
00111110010000010011001011101010
10111110100100011100100001011011
10111101110110100000110110001101
00111101111010010111111111101100
10111110000001000001000100001010
10111110001010011111111010000101
10111110100111111110110010011101
00111110110101110110000000110000
00111110100111010011110100100001
00111110101100111110001011100111
10111110100011100111111011101100
10111001001111000000011101100011
00111100001111111001000001110100
00111110110001110111100111100010
10111110101001011100110000101100
10111011101101100100110011111100
00111110101011101001100110000110
10111110100011001101110100000110
00111101111001011010010100001001
10111101011101100110000100010110
10111110000100001000110011011110
